/**
  ******************************************************************************
  * @file    cnn_2d_edging_ai_data_params.c
  * @author  AST Embedded Analytics Research Platform
  * @date    2026-03-22T00:21:06+0100
  * @brief   AI Tool Automatic Code Generator for Embedded NN computing
  ******************************************************************************
  * Copyright (c) 2026 STMicroelectronics.
  * All rights reserved.
  *
  * This software is licensed under terms that can be found in the LICENSE file
  * in the root directory of this software component.
  * If no LICENSE file comes with this software, it is provided AS-IS.
  ******************************************************************************
  */

#include "cnn_2d_edging_ai_data_params.h"


/**  Activations Section  ****************************************************/
ai_handle g_cnn_2d_edging_ai_activations_table[1 + 2] = {
  AI_HANDLE_PTR(AI_MAGIC_MARKER),
  AI_HANDLE_PTR(NULL),
  AI_HANDLE_PTR(AI_MAGIC_MARKER),
};




/**  Weights Section  ********************************************************/
AI_ALIGNED(32)
const ai_u64 s_cnn_2d_edging_ai_weights_array_u64[1376] = {
  0xbdee3f84bd434c48U, 0xbef6de833d697f14U, 0x3f9fb582bf2d5753U, 0xbf8c6d5bbc54590bU,
  0xbfc93cda3d8242d8U, 0xbfa0b0e1bec8f264U, 0x3fd7fb3bbefe755dU, 0xbe0a080abdb2183bU,
  0x3fca1012be94d364U, 0x3e6dcdca3d1a1fc4U, 0x3eceba39bb34e1d6U, 0x3f1bace5bf25f664U,
  0xbdd37575bd8a876aU, 0xbf726e67bd9296f8U, 0xbfd058ebbeb9f0a2U, 0xbe20d3503e4dea2dU,
  0x3e0934553e0378caU, 0x3f1baa99c141f9efU, 0xbfb7ec1d3c472d85U, 0xbfb71ad73ce25d81U,
  0x3c0bb3d6bce0b289U, 0xbf33a565bd5c4368U, 0x3feae401bf8eaf05U, 0x4075d164becc6313U,
  0x3fa5291ebed0a8adU, 0xc027e2f8bc7dd3c7U, 0xc08c12873c559f5eU, 0xc02267493c1ee3efU,
  0x404fb62dbfdbdcd8U, 0xc01d2fbe3bfe000eU, 0xc09cd5fb3b88428aU, 0xc0918dd2bf8594eeU,
  0xc0a0081ebc890f77U, 0x3f788443bd2c0865U, 0x40016650c0ec9114U, 0x3f3ecfe2bcbed7f0U,
  0x40693784bf13b850U, 0xbf605546bef10695U, 0xbfb6b34a3c0c56bfU, 0xbff382353a0c9722U,
  0xbf8c326b3d98bc39U, 0x3f1855afbee24d63U, 0xc03e28babd1dd256U, 0xbfc9fbe0bd041e37U,
  0x3fa09e41bf0bb132U, 0xbfdfa23b3c4d956cU, 0xc032fb783c048c7bU, 0xbf37e4e63d064f70U,
  0x40892f7ebfa6fe72U, 0xc0b809d3be40e416U, 0x4074d1b3bf8aa65bU, 0xbfc175a1bca589caU,
  0xc07bd59cbbbc56b1U, 0xbd652cf13d3c1abaU, 0xbf9561ac3d0d8f0dU, 0xc02e44313d882c48U,
  0xbfa7cadb3cec2d68U, 0x3f9e93f2bcff3a7bU, 0x3fc411f73d82069dU, 0x3f84e737bc67376cU,
  0x3efe6056bd9c3837U, 0x3fa3edd8be9d0d25U, 0x3f13e234bdff8addU, 0x3faf0145bf46d0aeU,
  0xbd99ec3b3cdf70a0U, 0xbe905db5bd1c3ab7U, 0xbfc736a5bedf113dU, 0xc010e5483daecc16U,
  0xc01d09b3bc576253U, 0x3fadd052bee1b9a0U, 0xbf3b3bd1bd2bd3e4U, 0x40148f81bf336627U,
  0xbf3e91a0403bb150U, 0x400700463f56d7f7U, 0x3faae6ee3ff4897eU, 0x40675522c07fdf16U,
  0x3d8f9557be0b42f3U, 0xc02aede53ee23aa7U, 0x3ef6ddddc09560bfU, 0xc0627fa43e5eb293U,
  0xbea0af333e78ddc1U, 0xbeb9e2983f6438e7U, 0xbed5c09cc089732bU, 0x3e79bafd3e4f5aacU,
  0x3f10fec63eac4fabU, 0xbff77ea63f17b901U, 0xc009b226bfb19560U, 0x3d85ecb9bdf63180U,
  0xbde8c5753d9d8b60U, 0xbff26d283e73a54aU, 0xc028bf82c08fb5a3U, 0xbffddba53eca0324U,
  0xbe8ddab73f1d5ed8U, 0xbf81367e3f6f6d3fU, 0xbfc069cdc0e339ccU, 0xbf5be29f3e6bcb6fU,
  0x3f89b5523f4a0cd7U, 0x3ec0cee93ef203a8U, 0xbffcae42c0d38ed2U, 0xbd59bc383dbd13c0U,
  0xbe063ca83e2287b5U, 0x3d132b923e7fd6f2U, 0xbfe40819bfe8ee55U, 0xc0905a0cbfb11a4eU,
  0xbebbc9b93c9692aeU, 0x3e41493a3f857bdaU, 0xbf002026c054e89fU, 0xc04c72b1bf0ef4ceU,
  0xbdc108643f461158U, 0xc01762733f862a7fU, 0xbf549050bfc2ca4cU, 0xbfc491edbede97dcU,
  0xbf34768f3e36501bU, 0x3f3bef8a3ef08a1fU, 0x3f1018a13f758365U, 0x3e5713333c40e112U,
  0x3f458f21be37a5ddU, 0x3ef84c943ee368b6U, 0x3e1574e13fe0074aU, 0x3f016a5ebdc2f1e2U,
  0x3fb62ce2bdb25e41U, 0x3f05f4313e9be9eaU, 0x3e6de7de3f80f895U, 0x3f218ec53cab1cabU,
  0xbe5a9f8a3ed4f9a3U, 0x3ef030543e67d2d9U, 0x3f1b18753f103829U, 0x3f56c5e0be99a7e0U,
  0xbe5c36463ecbfbd9U, 0x3e972abc3e8a02a5U, 0x3f00c5213d24b7c3U, 0x3f5c824ebe6fd4a7U,
  0x3f83e5c53e33aa03U, 0x3f330b1a3dd42fa9U, 0x3eb839f43cc7997bU, 0x3f6a4cb5be6d975fU,
  0xbefe259a3f01e375U, 0xbf955dc43defad77U, 0x3f16e9e1bcb73312U, 0x3e6dcd8fbdade337U,
  0xbef7b4ee3f06332aU, 0xc06660833ebe753fU, 0x3f361ff23d33de59U, 0x3f98383abdf8afe8U,
  0xbe4179633f34a144U, 0xbfb4b5ff3e596e1eU, 0x3e1e85f03ea49ec5U, 0x3f50e1113db21466U,
  0xbe2869203e1e4287U, 0xbfcf7b74beacd80cU, 0x3e029bad4005a018U, 0x3f4c8e1bbf2420daU,
  0xbf06c931bf0316eaU, 0xbe1f8e5fc09c5ecdU, 0xbec65c294058e69fU, 0x3fb4fe90be7a76e1U,
  0xc01b3addbf970e0bU, 0x3f09605a3f27df94U, 0xbe5d60f93e0a6b3fU, 0x3d3050803c2ed94cU,
  0xbeabb411bf592f01U, 0xbf5a9892bfd1b528U, 0xbf194c0e3f4918c6U, 0xbfe7089cbfe97355U,
  0x3e61f2a3bea35b48U, 0x3fcceae63e082633U, 0xbe2e0cd23e9da879U, 0x3e155030bc9f665fU,
  0xbe6ea6e2be7d7f1cU, 0x3db9febd3f3c71baU, 0x3e654e3c3f39bd20U, 0x3e9f95793f84e23cU,
  0xbf1a7aeabc8d002fU, 0xbdb2e496bbd131cfU, 0xbfdd4a99c02f9ff7U, 0xc064c088bf1c8bd0U,
  0xbd81969bbe28dc0fU, 0xbf30bf213f23618bU, 0xbcb935e03d6d4140U, 0xbff5616dbf90bd6eU,
  0xbe0744aebf7a72feU, 0x3c92a7a03db3c064U, 0x3eb5790e3f78d95fU, 0x3c4c9b1cbf163323U,
  0xc0362e30c029d6bcU, 0xbff302b5bfa5f9e1U, 0x3f2b5e7bbf649ccaU, 0x3db2a497bd3faadaU,
  0xbf363935c0715122U, 0xc053a411bff7bfc7U, 0xbf1b6a0dbd8feb38U, 0xbfe6e589bfa2ada6U,
  0x3f3a1e80bff9fb2dU, 0xc0444efe3eb6b722U, 0xbe45d1dc3f85d651U, 0xbf5d4ac2be4bcfe3U,
  0xbf3782e93e7729fdU, 0xc0ca0acf3e88ce4fU, 0xc00e260f3dd05e75U, 0x3fa16e77c015210dU,
  0xbe85338fbb3f8a80U, 0xc02f67e4bfa8ca0eU, 0xbfc682cbc00a17f5U, 0xc0684c0dbe25bff7U,
  0x3f36ef7ebe6b4df1U, 0x3f13608b3e3ede57U, 0xbf12b4bb3f57392aU, 0x3e4135dbbe4fa5dcU,
  0x3eef6a15becba9bdU, 0x3f7838eebf04df78U, 0xbfd13a9fbf98e24eU, 0xbfc6a073bfeb3649U,
  0x3e5bbc6d3d95ffe3U, 0xbf97ef7ebd9e98fdU, 0xbe064433bf77d1b1U, 0xbeb404d13eed8ebcU,
  0x3d4c5e24bea281d9U, 0x3f3872f83f06a98aU, 0x3eb91bcc3d2ea2f5U, 0xbf0a48653f3947c9U,
  0x3e14f875c0605d2bU, 0x3e81f852c08b4708U, 0xbfcf3234beddeb1dU, 0xbfee0865bfb7c6d2U,
  0x3f1226cac08e3e27U, 0xbdffd148c04398aaU, 0xc0443518bf8960eaU, 0xc0a433e3bfa22c78U,
  0x3fca8f8ac06ae611U, 0x3dd4f7e7c0136e7bU, 0xc01527ffbf53828aU, 0xc024bb7abf98e609U,
  0xbf0ea19b3b320216U, 0x3f711e99c031ff2bU, 0xbf4af6b9bf357315U, 0x3ea57b263d7e83aaU,
  0xbee19f893e86a6caU, 0x3f4eb11ec01d9383U, 0xbfdb3022c01c9216U, 0x3e9cebff3f1b9da2U,
  0x3e1e7ece3d81eb54U, 0x3fa3c119bf473f77U, 0xc00c1e84bf9b4bafU, 0x3ee59db13e741566U,
  0x3d1a80c83e568bc4U, 0xbeb63f0d3e82a68cU, 0xbe68f24cbf2408d0U, 0xbf726b443f383246U,
  0x3ef164853eb95166U, 0x3e1902e0be469c5fU, 0xbed3138cbf08388dU, 0x3ed808ad3f6ab0a6U,
  0x3eb85a4fbcafe015U, 0xbf221b88bec49851U, 0xbf19a837bec1c852U, 0x3eac03b53f1f8255U,
  0xbf9b10a3bfe14eb7U, 0xc077dd583f7c6876U, 0x3ff2e6233fdff1c7U, 0xbe9fda55bdbfee2bU,
  0xbfa9e5c1bf9aed8eU, 0xc095a2463f471610U, 0x3f22d4853f3d8992U, 0xbfd2473ebbebc19eU,
  0xc031116fc08b35e9U, 0xc076afa33f6e0adcU, 0x3fb7a47abd9b4063U, 0xbeff28363e5232a6U,
  0x3f0d489ebfbdbd5dU, 0x3f7f4b303f12d6b7U, 0x3f3c685f3f7882c4U, 0xbf78c1edbd8a09e8U,
  0xbdd913f3c019de43U, 0x3fb9556ebe08d798U, 0x3f7a12cf3f0e945cU, 0xbfa5f960bf05f046U,
  0x3c705ad7c0165a7aU, 0x3f90e90b3ea896f1U, 0x3f78654a3eb7fa84U, 0xbf1c248b3d3603dfU,
  0xbbc28a85c01e9d34U, 0x3f0fb9d83d4fb674U, 0xbfa051c93f28a6c8U, 0xbe345fccc0440a2cU,
  0xbdfcd038bf15f1a6U, 0x3f2ce18bbecac7c5U, 0xbf7aef97bd03648fU, 0x3ef3e93bbfa79a41U,
  0xbe9cd0e8beda0785U, 0x3f3fb24abfb0f2c9U, 0xbf0962aa3e140015U, 0xc0106298c073b21bU,
  0x3e489c3f3f2a4052U, 0xc0011d57be070700U, 0xbfd7e08fc03387e3U, 0xc070f2ed3c3a93b1U,
  0x3f0faae83def45ccU, 0x3e09ab09bfbbe0baU, 0xbfbbd8c4c00247fbU, 0xbf7a9b1f3e672389U,
  0x3f5b6a00bda25522U, 0x3e410c893f0392d0U, 0xc00311a6c03eada1U, 0x3ec6d2fb3ca19d32U,
  0xbebacd043e8e08b4U, 0xbf61601e3f7763beU, 0x3f8a99b83db19fcdU, 0xc0a11fe4bd953aadU,
  0x3ed4c0763eb0ccd0U, 0x3f36c9693e779fceU, 0x3eccff72be2fe10dU, 0xbfb383db3d38fdb6U,
  0x3f23dd60be9f07e5U, 0x3f87db663f377f30U, 0x3f0edd5bbece36b8U, 0xbc48d1dc3ddc51a6U,
  0x3de06328becc8936U, 0xc0a3ad033deae5aeU, 0x3f3fcc673dc23248U, 0xc08c63dcbefe08c6U,
  0x3f1a2d13bf9fbeb5U, 0x3f57a02d3d6b8476U, 0x3e037b823f012b95U, 0xc076c3b7c08d0530U,
  0x3d171584c0365a29U, 0x3f093b073f3a2bfdU, 0x3e3b1871beef26bbU, 0xc06f8b44c12ea841U,
  0xbf336c4cbf414caaU, 0xc0a1e71ec03c49a4U, 0xc01d44e9c002b87eU, 0xc0254cb2bf291d80U,
  0x3fc8dbb43f95168eU, 0x3fc9e458c0d0cc02U, 0xc0d0ba84c07b809dU, 0xbe944ca7beb216a3U,
  0x3fe9509abf7cd59eU, 0x4019eab4c0dee47eU, 0xc0d0c08ac080aaecU, 0x3f724da2bedf718aU,
  0xbe14283a3e91948bU, 0xc09ae1dec02562d6U, 0xc020ae33bf4c2a4aU, 0xc0a1fc28bee62712U,
  0x3f756d863eab08faU, 0x3fc244f9bfcb8366U, 0xbff9627bc05f9b71U, 0x3ee270febe2a3621U,
  0x3f736044bfaa2e84U, 0x3ef8f38abf46604dU, 0xc087427ec06a84e3U, 0x3d92a3dbbb437b65U,
  0xbd93bad73ec72a5eU, 0xbfcae3143dab1f96U, 0xbeb71505befcad7fU, 0xc0cc6148beea029aU,
  0x3e4062bc3ecfe880U, 0x3f7492e03e641d7cU, 0xbdf63929be1e5860U, 0xbe7e287ebe290953U,
  0x3d55e002bf44e314U, 0x3d03ec20bf0e7961U, 0xbedcac213d79fdf1U, 0x3ec8806dbe5ad289U,
  0x3ff88ece3f74d1c5U, 0x3fb10ec1c0ce7e17U, 0xc0f82a19c08de4bdU, 0xbeac4a7cbe12a452U,
  0x3febadfac07868d7U, 0x3f5982e4c0cb3d3fU, 0xc01cf8a4bfe8bf8cU, 0x3f8b8908be7d5ea0U,
  0xbf93d42bc02069f2U, 0xc09a40e6c024adbfU, 0xbfeedb00be99ff5cU, 0xc045b598bf5886deU,
  0x3f8b47933dbc46c8U, 0x3fa555f4bed55a16U, 0xbf1dcaebbf818704U, 0x3f663dec3e84b5d8U,
  0xbf08b2e2bf4888f8U, 0xbec78445bfaf5dfdU, 0xc09aa7efbf40e9f6U, 0x3eff9d603daa7a73U,
  0xbf956343c00005b7U, 0xc0dd444ac056d4a3U, 0xbf6896c1bf504ec5U, 0x3d4897a5bf052b7bU,
  0x3eaf96eb3e83676cU, 0x3f163e8c3d60d9b2U, 0x3d9a2ca8be84a1b4U, 0x3ead37d53d5bfd38U,
  0xbf440f54bf4674b9U, 0x3f3dd5493decbabfU, 0x3d36138fbc92883aU, 0x3f2c21213d8441b8U,
  0xbea7a617c0082a83U, 0xc076df03c051e5a1U, 0xbef5ea8bbd35549aU, 0xbe44d361bf4189b6U,
  0x3e6c41863f9b868dU, 0x3dead2583ddb19e2U, 0x3fa10dc53fc3b85bU, 0x3f8a7bb7bf749a69U,
  0x3e9ebd993f30f6fdU, 0x3f01ea54bf735731U, 0xbdb3eef23f7e64b6U, 0x3ea150e2bf16cb46U,
  0xbfb30cfc3fa7ee9fU, 0x3e8b557a3f2f2bb6U, 0x3fb331a13f173bdfU, 0x3f77e9dabf2c0867U,
  0x3ed062b3bf499f0aU, 0x3db9c89abf4c5656U, 0xbf9d006e3eae6233U, 0x3f930984c077db42U,
  0xbdc3cb3fbd98c587U, 0x3e9121223ecca4ebU, 0x3f07d41d3efd1e07U, 0xbeabd219c076fddeU,
  0xc08e35ea3f2571eaU, 0x3eadd2cc3f1c83dcU, 0xbe5aa889bf0512f0U, 0x3eb4507fc0a1648eU,
  0xbf23ca4dbf29ecd3U, 0x3ecae3e33ea40e86U, 0xc02cc5f73f2516b2U, 0xc027381fc00896ceU,
  0xbeb9aebdbe8e548eU, 0xbfa1db053f1ed274U, 0xc09f6edf3e34cd6eU, 0xc00a8c00be4d5abbU,
  0xc053ea82be431e36U, 0xbfddf76c3f33784dU, 0xc01b96993ef4893cU, 0xbfbbe5e8c086f3ccU,
  0xc0949b4bbe0ff217U, 0xc0453b7d3f863dd6U, 0xbd3923d5bfad382dU, 0xbf5da3f73f047793U,
  0xbfba04f9bf35f901U, 0xc09e75233f49d78fU, 0x3f7291b03fd6e220U, 0x3ea37d15bc9e9177U,
  0x3f95e102beb00a00U, 0xc0680eaf3eb910c9U, 0x3ebe04a74010d792U, 0xbf73d9c23d99e854U,
  0xbf52334fbf1d7e92U, 0xc040c2663f319847U, 0x3f4a0a193e989cc7U, 0x3ea4e8f83ec9ac39U,
  0xbc50e294bfa37632U, 0xc0054e583f306a91U, 0x3f4d06ae3f5564a8U, 0xbf10e58ebdcd3900U,
  0x3f1f8066bf7a3dedU, 0xbfe9a3f23e9728e2U, 0x3f9ebd973fb9848aU, 0x3dc41c0b3dfc5d4fU,
  0xbf323d7f3e0db49dU, 0xbe5a87f3bd83293fU, 0x3f1524be3f0e8603U, 0x3fedd886becd6f4cU,
  0xbeb7364e3e381bceU, 0x3e8641f33ead0c29U, 0x3d3f4f4f3e70a265U, 0x3e2fd7bfbfd0663fU,
  0xbe70d4a83f87cf86U, 0xbc6a94ea3f576f02U, 0x3facf0783eb5dfa4U, 0xbe617f60bef0af78U,
  0xc02c73f9c016b00cU, 0xc0441874c01bb507U, 0xbfd49af7bff11429U, 0xc0483b3cbf27bcc8U,
  0xc08358eec05a684aU, 0xc0615a44c07fe054U, 0xbfb5904fbf8c965eU, 0xc06775b0bec48ff6U,
  0xc04e9914c0005507U, 0xc0387b04c0877c95U, 0xbff92cdbbeef4354U, 0xc0073795bf482681U,
  0x3ef96fcc3d857c70U, 0xc05abbbd3f8aebb9U, 0xbf7fa7d6bfef8749U, 0xbf7d30623d54cf93U,
  0x3e9270e4bebae52aU, 0xbf8367bf3d2fc621U, 0x3d8297aebf2bb0a7U, 0xbe2f68073e93c088U,
  0xbf6ab591bed3d41fU, 0xc09388ac3e746b1bU, 0x3e8a11503f0001acU, 0xbe087f4a3e6e2a52U,
  0x3e50baef3e1e02acU, 0xbfd301923e404f75U, 0xbe94b573bbbbbafdU, 0x3e5c0b003df90379U,
  0x3e55ee5f3e9cd441U, 0xc09033a93e3c6c06U, 0xbee936213ebd26e4U, 0x3f044b89be237963U,
  0x3e2c992f3f62bf0cU, 0xbfc54846be00fd20U, 0xbec21fa43f10e25dU, 0x3d0b6287be715b2bU,
  0xbed964cc3e9cbb44U, 0x3ed7dc58bfa9ee38U, 0x3ee1c8b73fe6944cU, 0x3f66ec9ebf8e7015U,
  0xbfbbc34d3f1745f2U, 0x3edd61013f4e7339U, 0x3fa96d8ebf53a999U, 0x3f71eddfbe41318aU,
  0xbfa21413c00b05d2U, 0x3f76ccfdbf3f4779U, 0xbf1af67ec02fd1e4U, 0xbea3352fbfdb4778U,
  0xbe6eb24c3e19bb92U, 0x3f885c0ebf7b85f5U, 0xbce979a73f4d5068U, 0xbfea190fbf458ec3U,
  0xbe799d71bdcecac2U, 0x3dc1a66dbec8b891U, 0xbfdc4c893d100777U, 0x3ec62d7cbfcf08e8U,
  0xbebd1d66be574065U, 0x3fdd43adbe6a1299U, 0x3f602c1dc003f1b7U, 0xbfb94764bf518515U,
  0x3de33585beec2264U, 0xbf1b432ebf10a4f1U, 0xbfeec8253f8393ceU, 0xbf68ab7ebff81131U,
  0xbf09c9cabf61706aU, 0xbf1b2c333efdef97U, 0xbf82defd3f77e018U, 0x3e1c6c0abf290d75U,
  0xbf3871c7bfce6008U, 0xbf2eb6c53f60e04eU, 0xbfb96cb1c001bbc1U, 0xbe887411beba15fdU,
  0xbff9343cbf61ca57U, 0xbfcc3587c08b954fU, 0xbf92f750bf1e3e3bU, 0x3f242453bf9e2a95U,
  0xbf9443cdbf0ebd43U, 0xbec86d8cbfd682eeU, 0x3fcf2dbcbf960506U, 0xbf90f497c0368946U,
  0x3fab1e41be4360d4U, 0x3f63cc5cbf2de658U, 0xc073196bbfb90677U, 0xbeaf91e9bf74ef91U,
  0xc0096fcbbec2e39eU, 0x3f204e9b3d92dc35U, 0xbd934504c0385fb8U, 0x3e0448f9bdad7c7aU,
  0xbf046e3dbd815b3bU, 0xc09a2dd53c6e1a95U, 0x3d0918d7bf632237U, 0xbe285b99bd5325deU,
  0x3fe7d9623f96f43dU, 0x3f971748be71765aU, 0xbf6b5078bf878537U, 0xc029c9d23e57239dU,
  0x3e9b51fc3e8b9191U, 0x3f2438a73e8925c6U, 0x3f453d903ed10cdaU, 0xc0280ed2bf144442U,
  0xbe126b1dbf66b64fU, 0xbd9f997b3e8de2daU, 0x3f7b0899be43b130U, 0x3f249e9bbf4803acU,
  0x3f80200fbeb7743dU, 0x3f3eece03bebf53eU, 0x3f334ba03e3deb73U, 0x3dcd9950be4e983cU,
  0xbfe00745bf9e0984U, 0xbfc5c5d2bfb15a2eU, 0xbf74e0dfbd58638aU, 0xbf7aaa0cc01795f8U,
  0xbf227815bf7c9546U, 0xbfc1c95bc0063c36U, 0xbfcb57a1bdc1161dU, 0xc004ddccc073dab2U,
  0xbfc01c26bf56b011U, 0xbf7668e93e8df249U, 0x3fc93f6ebe4b91a4U, 0x3ef1a32f3e8b17afU,
  0xc070db38c00733c6U, 0xbecc830ac0175286U, 0x3e6e6839bfcc40cdU, 0xc08cbe5abf34780dU,
  0xc0755bcbc04e06abU, 0xbfc3d862c00ec84fU, 0xbf820c28c046debaU, 0xbf6024fbbf1d0e2eU,
  0xc07958d4c063fcb6U, 0xc008cea5c0139ab2U, 0xbf0b99cf3fba40bcU, 0xbff8658dbf09e869U,
  0xbe0d77e83e49f34aU, 0xbfaa91733f0cc8f9U, 0x3edccb76be83dcedU, 0xbe11ff163f14ccb5U,
  0xbf1e714bbdf77b83U, 0xbf122ce33eddeae6U, 0x3ec905ad3ea373abU, 0xbe0c4e493f5403a7U,
  0xbf24c98bbdc10198U, 0xbf235e273d87e4e2U, 0x3eb84bf93ece5362U, 0x3dc087bd3f999594U,
  0xbe942deabf59cdddU, 0xbf0dec65be79e1ddU, 0xbff40e513d758591U, 0xbff516103f3e5b6eU,
  0xbca05502beedf387U, 0xbe437f023d963f66U, 0xc01c88a9bff7f6ffU, 0x3e5c81e83e9192b5U,
  0xbeaf4c2dc0081871U, 0xc05a8a59c08e0b0cU, 0xc02cb6f0bfef491fU, 0x3e928655bf3a3814U,
  0x3f1556033dedd958U, 0x3e99cfc3bf2386c6U, 0xbf5418cb3ddd61f2U, 0xbebd3f693ee77e4aU,
  0x3db636b9bf0d832aU, 0x3f1525adbdd8830eU, 0x3d2cfa013dcf48a3U, 0x3f2df0bf3e97f70bU,
  0xbf3b55a2bfe6c749U, 0xbf7ed014be74ef35U, 0x3f70b2f73f4c0bd9U, 0x3ead89c5bed709b9U,
  0x3ee1ab45c00c899bU, 0x3e8db59bbf002d21U, 0xbf85341d3f80572fU, 0xbfe839ebc09a6b11U,
  0xbe00fbfec029f5d2U, 0xbdcfce7d3dcd30a9U, 0x3dee6471be5c73e6U, 0xc000db61c096075eU,
  0xc03698a0c06e0dd0U, 0xc0821066becd5f4aU, 0x3f752c80bd9ff077U, 0xbd0cdad6bf3efd08U,
  0x3f87e40e3ea1c499U, 0x3e04cae2bfecf6d6U, 0x3f9becb6bfe54ca2U, 0xbeeb6ca5bd8fe53fU,
  0x3f900e31bd9c2d15U, 0xbe476254bf79d196U, 0x3ed08431bfe7910eU, 0x3d3c5de93c8cc0d6U,
  0x3faeeca6bcd70d49U, 0x3f002df0bfa06952U, 0x3eb34634c00bfca5U, 0xbf0bd9dfbebe61b8U,
  0x3e104a793ec71723U, 0x3f84c2fec03255a4U, 0x3eea2607bf570a03U, 0xbdc5d0efbeae5ec3U,
  0x3d36a2303ef00d7eU, 0x3e92edabbfd6b272U, 0x3f23ad6bbfc6a42aU, 0xbc3aee58bdf5fc43U,
  0x3e64dcd43f154edeU, 0x3f5e222fbf687d7bU, 0x3f3e1542bfd3aef6U, 0x3e9dedfdbe9afc19U,
  0x3ec0a7843f1b0130U, 0x3e7eaf8ec03ab42cU, 0x3f0d85c3bf18867bU, 0xbf5cc78f3e859cd6U,
  0xbe02c8903f3dc831U, 0x3ea85e0cc016f196U, 0x3d201b9dbfa77768U, 0x3e85d3d93e8b89c9U,
  0x3e5ad8c03f156a9dU, 0x3e07e29cbef7ce08U, 0xbced8076c036d222U, 0x3e9bca763e0c0a0eU,
  0x3ee64a7b3eab2deaU, 0x3e603711bf001dc3U, 0xbf7f14f8bd543361U, 0x3f2a4d1d3ea98140U,
  0xbd42e75ebef128aeU, 0xbe3f8eeb3f5cb6baU, 0xbf022f83bfce9151U, 0xbeedf25ebe4c3691U,
  0xbfddb65fc0199320U, 0xc03b51c03e038860U, 0xbeae0b71bf3638ecU, 0xbdc3210d3e32531cU,
  0x3e7011efbecbbdc8U, 0xbe6edd733e73c94fU, 0x3f1fea263f62d902U, 0xbfa80002bed0a277U,
  0xbe57fb86bf35ed4fU, 0xbe0433763f531941U, 0x3eb3ed56bec5cc6dU, 0x3ecff0adbe11ddfbU,
  0xbf11978fc0081ab6U, 0xc0b046afbeb80babU, 0x3e3ed6563f019661U, 0x3e19b0ae3e03e59bU,
  0x3f73a304c0320e55U, 0x3f6df4a5bfa985dfU, 0x3f170b3d3f1eb434U, 0xbe79fdbfc0e2c8cfU,
  0xc008db02c0a8fee3U, 0x3f6311e13dca4db6U, 0x3f4d17b4bf279391U, 0xbef10c03c08555c6U,
  0xbe98a3e6c0d2f691U, 0xc04a507cbe12f2a2U, 0x3ef694cb3f67c5c3U, 0xbf8495c93d9a0aa9U,
  0xc041be3dc085cd22U, 0xc02ad533c00ec477U, 0x3cce483c3fa89aebU, 0xbf888ff13e093a00U,
  0xc0458f72c05691c0U, 0xc076fb02c065227dU, 0xc0199955bfd3246cU, 0xbfb2e46dbea75557U,
  0x3eee2297bdf90ae8U, 0xc02a2e1c3f21c122U, 0xbf31d174c00089e0U, 0xc047bd27bf060591U,
  0x3ddb023cbfa8f603U, 0x3e94057fbf6a3c21U, 0x3f20e9c33fd4a24aU, 0x3f2c5bd93e122836U,
  0xbfb39dfdbe6096b2U, 0xbd6044e23d9c769eU, 0x3c6fc02f3f3d3cccU, 0xbe38feba3eca4c3eU,
  0xbf5bd2633f42c15eU, 0x3f6fa7673ff31574U, 0x3f83fa53bf4ef6c7U, 0xbf39b69d3c1323b4U,
  0xbd0a6a703ed3e8eaU, 0x3fa4c3c43e2fa206U, 0xbeb00de83faf6f9fU, 0x3dd241acbb07e1d5U,
  0xbe82ea703f1106e0U, 0x3fceb7843e88c11fU, 0x3e50c4f23e8b11d2U, 0x3eff08c53edb8807U,
  0xbcc9cfee3ed42c3fU, 0x3f6d47123e97e195U, 0x3e8411433d8c54e3U, 0x3e60dcb03db3309eU,
  0xbf082336bf1772caU, 0x3fd61b80be89919cU, 0xbebd7b32be75bec0U, 0x3ecefd67bfb2dd74U,
  0x3ee6931fbfebf08bU, 0x3fad711ebf9de8f7U, 0xbfa30dd2bf8815e6U, 0x3f0295c2c020df81U,
  0xbfe708a7bff7142dU, 0xc0212159c011258cU, 0xc0598af3bf0ee1ebU, 0xc00b9cb3c058a974U,
  0xbe8e5c31bfba0af3U, 0xbf89059b3ea433d9U, 0xbf80694ebe84bd77U, 0xbd538b04bfc85e29U,
  0x3f1be3a8c01cdbfeU, 0xc022dd82bf2084d6U, 0xbe0ad2a4bfe562a6U, 0xbfbed36ac00fb202U,
  0x3fc7875dc0944f8aU, 0xbf3b325cc08a44bdU, 0xc087002ec00115bdU, 0x3f801347bf41715dU,
  0xbfd51c0cbfb06e6fU, 0xbf8120afbea87c34U, 0xbfa57b20bf01f31eU, 0xbfa61224bf926abeU,
  0xbe76287e3ef1e240U, 0xc0403e48be29d922U, 0xbf12491abedcca5cU, 0x3cdba7dcbf2cc4dcU,
  0xbf70f3a83f19aa96U, 0x3f6894473e6dd98bU, 0xbe711a20be59569dU, 0x3f15a0a8be90bb68U,
  0x3f1d76a13f111c34U, 0x3ebe997bc01c9942U, 0x3f53e972400824aaU, 0xc0436bbcbf0cb613U,
  0x3f1b7ef63f5dadb2U, 0x3eb4ee9ec04a0c88U, 0x3f0e08cf3f3e5cc0U, 0xbfbfddb8bf843fd3U,
  0xbf9bb9b53fbd6847U, 0x3e100ea03ebe29e0U, 0xbef2a84c4008f2e1U, 0xbd85e2f4bf8f65b6U,
  0x3e89dbdfbfcca403U, 0xc048b48bc0290fc9U, 0xc02f03ba3f1574f4U, 0xc0222205c05e4d65U,
  0x3dcce7fa3f52c47cU, 0xbf728fbfbfb9219dU, 0xbe93363d3eb059fcU, 0xbf7dedf5c0078750U,
  0x3e5eb2063de15de1U, 0x3ecfd0b7bfb6de94U, 0xbf94ea753f6b0383U, 0xbf8ae85ac031d473U,
  0xbeec2f37c05a0986U, 0xc071351dc045284dU, 0xbfe8c254bed2c7f8U, 0xbfa1f15bc054c3eaU,
  0xbe9a7c60bfdcb7e0U, 0xc01aab18bf42e7ddU, 0x3f68d6f93efb1730U, 0xbed3b23fbf4dd2a1U,
  0x3bf0f6b53ea19540U, 0xbe1e5b33bf81683bU, 0xbf66fe0a3f8b50dfU, 0x3d9883a4bfda1477U,
  0xbe952e29bd3b9b64U, 0x3dce88fcbe014c04U, 0xbfeb3b623f29d36eU, 0xbeb5aaae3e8dafc1U,
  0xc0773cfbbf87ca47U, 0xbfcc5d8ebed885c5U, 0xbecd341bbd9eae60U, 0xbe990f693eb92248U,
  0xbfbf55d3c02acd0bU, 0xc014d24bc000c0c7U, 0xc031df863f1c31a5U, 0x3cf743bdbf29c5d1U,
  0xbced871e3e75eb21U, 0xbefeb173bf3d7f65U, 0xbfc3d26d3f886ebbU, 0x3f48d7953d7b9f0cU,
  0x3e140a653e9fc9e3U, 0xc00b3722bf8b5735U, 0xbfede1f23f94d73fU, 0x3edbff323d286a99U,
  0x3d85fd01bf5b290eU, 0xbe9fdba4bf838dd0U, 0xc08682b7beb06917U, 0xbdb69656be0e7514U,
  0x3d1caf223e4f955fU, 0xbfbf4b6dc0068278U, 0xbfafd9883f8d2df5U, 0xbd8ebcd1beeb395dU,
  0x3e8f81a2be4463adU, 0x3da9950bc00ec22cU, 0xbf6497d13f578571U, 0x3f4d2197bec9a3d1U,
  0x3cc5cc05c0123642U, 0xbec1a2e7c0864b0aU, 0xc09d8002bd8c863eU, 0x3e9e2b01bf93ececU,
  0xbe900515bfa5b61eU, 0xbe4e2abf3bae9065U, 0xbd5c0d9ebea7a610U, 0x3ee4e74b3e2513e5U,
  0xc019e6fcbeac5b72U, 0x3f2514c73e8c0d46U, 0xbfaf9e26bd1dea12U, 0xbd0698073ead99f9U,
  0xbf3e3875c04ef173U, 0xbedd79423e9489a3U, 0xbfa874de3f02bfd2U, 0x3fcb5389bece3f30U,
  0xbdbaa5c23ebd13f4U, 0x3e8e5405bf514ccfU, 0x3f89bbab3eb1041fU, 0x3ed3a02abf6a84deU,
  0xbfad81dc3f6b039fU, 0x3db3e41ebeb1b03fU, 0xbee898cbbe6278b8U, 0xbe8cd3dd3ef50f64U,
  0xbf640c24be9691d6U, 0x3f091d84be9b0d76U, 0xc01368c9c0911406U, 0x3f1c9ce7c0808e2eU,
  0xbe3994443f1af176U, 0xbbdf5d11c03a1f41U, 0x3f27ee773ee72fc0U, 0xbe9c841bbf86b3cdU,
  0xbf0a6cb73e61fba1U, 0x3e2aff36bea3421cU, 0xbfff66b2bde0d59cU, 0x3f3e9ec6bf79dc8fU,
  0xc058d49dc00fd6d1U, 0xbf902f983f8540caU, 0x3eb46c95c04b824aU, 0xbf61d1c7bfca67a3U,
  0xbcc4c6c9bff6d446U, 0x3f41dee3bf9cc035U, 0xc08770edbf266773U, 0xc049cb58c0113030U,
  0x3f2c3ee8bfbff80dU, 0xc08cc073c04e97c3U, 0xc0607b46bf203dabU, 0xc031be53bf6af47cU,
  0xbf57d6b4bfd26488U, 0xbf8be055bfd4f23dU, 0xbff6d7e0be92b096U, 0xbfdd446bbf9b68feU,
  0x3f2e34243e5bd73dU, 0xbe140297bf1f2fb3U, 0xc0c76e2dc068a690U, 0xc0ab101bbf242748U,
  0x3f15a523bf18d614U, 0x3de53c97bf2f16c6U, 0xc0c503bdc06ba9b0U, 0xc09845d8bf8b9ae4U,
  0x3e9a5548bf8dc07bU, 0xbf99226ebe2cf4d4U, 0xc0a8a061bf8d4d9dU, 0xbf89bb6cbf13f4f9U,
  0xbdaf37b6be8e07a6U, 0x3e1f589dbefe559aU, 0xbec23790beafbabdU, 0x3f62bc2a3dd5920aU,
  0xbe11aae4bfba6187U, 0xbe0f978c3df4c1fcU, 0xc08a1c753eca8b08U, 0xbce6c344bf404061U,
  0xbeb9e48c3bce8e32U, 0xbfe33b36be7db6e7U, 0xbddc259abf2cadecU, 0xc02634333d17e964U,
  0xc083cafdbe27f651U, 0xc0431dd03eb8aed2U, 0xbeadf69fbfa551ddU, 0xbfde92163e489385U,
  0xbf5dfd78be034126U, 0x3f57967e3fb311e7U, 0xbf458939c08bfd9bU, 0xbeda0ef4bf301871U,
  0xbf5b5738404ed18aU, 0x3e81f4b63f51a3e2U, 0xbe48c23dc01738bcU, 0xbfbddaf5bf0e34d0U,
  0x3e1ac73e3eebabc0U, 0x3f1925763f5ec27eU, 0x3ea312733f05bc54U, 0x3deb192a3f5b992bU,
  0xbd7565853e0282e8U, 0x3f567e6f3e8e1336U, 0xbe6ca6e9bf87763eU, 0x3e47a2693ef76d19U,
  0xc051e977c00facbeU, 0xbf8d4e803e92cd74U, 0x3f09e16ebf1451e7U, 0xbf858048be67e2ceU,
  0xbeba6a19be184c73U, 0x3dcbec143f004d91U, 0xbcec257dbf102068U, 0xbe8b1e4ebe1a80afU,
  0xbcfc3cf8bf4f7e90U, 0xbebc4b10bf367adcU, 0xbf13ee183f28e828U, 0x3ed9d994bee474cfU,
  0xbf971056c039815dU, 0x3f095a94c0354414U, 0xbfc08609be3f6a0fU, 0x3e30cf453e440154U,
  0x3f1693ab3ddd2b9aU, 0xbe9e04bb3fb8ad02U, 0xbea36455bf1b2f18U, 0xbe8bc4443ec7471bU,
  0x3f804eb63e82b908U, 0xbd8f29db3f341d91U, 0x3e3177983ec60a26U, 0x3ea244673efcf18aU,
  0x3f83a5e0bf252211U, 0xbec31fdb3e68bb52U, 0x3e62b4683f6e2ba1U, 0x3cf4c0c53f04ff68U,
  0x3e0e103fbec2a542U, 0xbdf42b70bed76cfcU, 0x3d0978703f2e82c2U, 0x3f7aa504bfcc508eU,
  0x3dc1737e3ead95e0U, 0xbdf121bc3f2f8f51U, 0xbf07c3cb3f3b8ed4U, 0xbe3112a5bf911b09U,
  0x3eda60883de9799eU, 0xbe7b2a773f1565d7U, 0xbd8a90573e7ab0b6U, 0xbd2e3c02bfa58c59U,
  0xbf0592c9bf7731ddU, 0x3e9d57f9bf899c2bU, 0xc01ddc55be9d7dbcU, 0xbf28e7b8c0d2a934U,
  0xbedf2b67bdca05bbU, 0x3df9d942bef55cddU, 0xbf557fb4bc65f4bdU, 0xbde7b1bbc051a9aeU,
  0xbeb569f9bf9cfe45U, 0x3dd1ad51bf96300eU, 0xbfb4c0713e499d25U, 0xbf28bad6c083b787U,
  0xbe8bda61bf220fbfU, 0x3eb01fe1bfd291a0U, 0x3f513ed33fd48bbbU, 0x3fa5a730be42ad1eU,
  0xbf5908583e2c3a60U, 0xc05a3d1e3f0f0966U, 0x3ef17175bfaaad85U, 0xbeef3ace3efdf5ffU,
  0xc055a3523ee93ef4U, 0x3eedc1a73fcbdf59U, 0x3ebbebdec062a7d3U, 0xbe97ff25bf326126U,
  0xbf4453943e4771fbU, 0x3f2aa84abd54224bU, 0xbe99d7453e1d56f5U, 0xbf6292c6bf16081eU,
  0xbfa330ff3f48bb17U, 0xbf125ce43f0951b0U, 0x3b1370293f0c9a63U, 0x3b98dfad3f08ce03U,
  0xbf7419dabf2e6585U, 0x3dbb901ac01bfc74U, 0xbf7279123ea77b2dU, 0x3ee7b5a8bf991000U,
  0xc002982c3e803f70U, 0xbea7e6f13eecbdf7U, 0xbf917087c076da90U, 0xbf6e44433efb90e1U,
  0xbfb69a70bf04d639U, 0xbed118d83de4533bU, 0x3dca02da3e1c450aU, 0xbdd05c51c021fa36U,
  0x3dd72f8dc02ec256U, 0x3e1dc2a3c07daa9bU, 0xbf9d57263f45757fU, 0x3d2b2aaf3f201a50U,
  0x3f807bb53f13a685U, 0xbf036f06bf107346U, 0xbf16af453f72deddU, 0x3e8f9859bce272feU,
  0x3e51a19c3ec5319bU, 0xbddf191fbfbf6e22U, 0xbf88e0c83f79805dU, 0x3ef07ac0becbcd23U,
  0xbf752e1bbea7115fU, 0x3c8444eebd10bd2cU, 0xbdd742f7bfbc3ae8U, 0x3f3980b6bf54f296U,
  0x3e8441a03c442341U, 0x3dca8f14bf25dc48U, 0xbe635ab53db57b7fU, 0x3f7223d3bf0a0c6fU,
  0xbdccb06cbf2f2898U, 0x3ebed9033e0dbae9U, 0x3e93050cc0060404U, 0x3fb13f9bbf20380dU,
  0xbfeb01cfbfb30936U, 0xc0587b923f0cc90aU, 0xbd26b6e6c034f9c2U, 0x3ee0fdb2bf81e952U,
  0xbf363bb23ee62195U, 0xbe9947613e13706cU, 0xc091d091bf8502fbU, 0x3f45458ebfad7e3dU,
  0xbfe8b63a3ea02bbcU, 0x3e9258f43e93308eU, 0x3e96c602c097d824U, 0x3e27a9ccbf786969U,
  0xc032f03fc0338de3U, 0xbf091715be6bd784U, 0x3ef402d4c0562d9cU, 0xc0406f1fc04fa4feU,
  0x3d2e4daebeabd63eU, 0x3f2d42a53f5f3d4dU, 0x3f2d3289beffcff1U, 0x3f902558c020d20bU,
  0x3ecda2993efa3b94U, 0x3fccc3933dd788a2U, 0x3e35def43f94cf23U, 0x3f8f50e6bfbb4181U,
  0xbf0b78043f9843a6U, 0x3f9333363ea7a79aU, 0x3f0878393f209611U, 0x3f0606e4bffe02ceU,
  0xbfa03bff3e0308abU, 0x3f1d9464bf6890fcU, 0xbf51f4633dba9189U, 0x3f9d0a8dbfb9a7c3U,
  0xbfd8ce043eff244dU, 0xbd6b5b05bede3fe7U, 0xbf1953273e83593fU, 0x3f1d9074bfe886a6U,
  0xbfe316d63f88a75fU, 0x3ed2726ebeca9111U, 0xbf3103933c3d0c73U, 0x3f33336abfc341edU,
  0xbfe9fc733f84ced9U, 0x3f5e0fb4bf1261f4U, 0xbf4c514fbe9aaf70U, 0x3f69dd403d9da462U,
  0xc01873cc3fc807cbU, 0x3f7dd923bee33c3fU, 0xbf1214f93d6ced8cU, 0x3f79e06abdff42e9U,
  0xbfcb69883ff71bd2U, 0x3f040046bf245941U, 0xbe66ec823cf56519U, 0x3f3920a83e7eb890U,
  0xbe2e21c1c039d834U, 0x3ec534ec3ebd74f6U, 0xbf177b77c00bd919U, 0xbfaa950dbfc04d81U,
  0xbf814bfabe5e8e46U, 0x3f601445be98a19aU, 0xbe1fae7540076fdaU, 0x3f0577763be5595aU,
  0xbf850f2dbea8ee47U, 0x3e96fcd53f1dbb0fU, 0xbf05182bbff8fd36U, 0xbf40f55fbe545ac3U,
  0xbe9e4c393e5d4fbeU, 0x3e953cb9bf6d9e79U, 0xbf325e3d3e92ec3fU, 0xc05063d9c0639241U,
  0x3e1eadd93e7a0405U, 0x3f15193fbe3e33a3U, 0x3f2fce5b3dd95099U, 0xbda23480be22b305U,
  0xc06d8c2cbe9e9533U, 0x3eda30ce3dc79237U, 0x3f8d33c13bcab58dU, 0x3f555d0b3d84b785U,
  0xbd25bcacc0ab6754U, 0xbfeaacc1c05e022dU, 0xbe8f8dc63eaacc98U, 0xc06ee9aec0a235cfU,
  0x3ec971193f072abcU, 0xbdd32feebe5e5501U, 0xbb05911cbe045e24U, 0xbf034a5abf99dcb8U,
  0xc0f8e1693f568757U, 0x3e99afcfbe35afadU, 0x3f9bb17fc02908baU, 0x3f4fe423bf887612U,
  0xbf1cc05bbea82d83U, 0xbf538ef1bcac417cU, 0xbf0c7de0be4781dcU, 0xbf7f8837bea064c6U,
  0x3d4d8616bf370163U, 0x3fb60c823f944231U, 0xbfd0ce29bffb0f2aU, 0xc02c09f0be210d3bU,
  0xbfa92862c04a6dffU, 0xbf8b31c7bf9f4635U, 0xbfc9b406bfb3192bU, 0xbf264dacbf457ac8U,
  0x3ac791b8bcd56018U, 0x3eb1f214c01e446dU, 0xbf94b632bfb6ccbfU, 0x3f53d2d8bff4b3a0U,
  0xbcc2dbbbbddd2817U, 0x3eae87adbd590db8U, 0xc03cb083bec66a82U, 0xbfa23b96bdf61ffcU,
  0xbf82b015c020d090U, 0x3f0d9d18bfa458a7U, 0xbfc11b7e3f352e34U, 0x3e2ccf1abf0d2a0cU,
  0xbec159a3bea9a222U, 0xc01d286cbf821630U, 0xbfe23d48bfcbb3b6U, 0xc06d4449befe35d5U,
  0x3fd312923f6b64edU, 0x3f8d8d2d3dcc2fa9U, 0x3d9e608b3e0854a7U, 0x3c975264bdc90349U,
  0xc00ef8c7bfc9e04bU, 0x3c2554643f68ca0bU, 0x3ef67af1be33ccbaU, 0x3e0d2652be9cbdfbU,
  0xbdce559bbfcbd7abU, 0xc06d73923dbccc79U, 0xbfd57b26be84848bU, 0xc01ec396bf4e6572U,
  0x3e35424ebf8ac811U, 0x3fbbcf973ec7b152U, 0xbf4f7f8bbf819df2U, 0xbeb11242be51dc4eU,
  0xbea37938c014b919U, 0x3ef16395bf151f5aU, 0xbfc441a1bf8b8e45U, 0xbfa99d49bfc12e34U,
  0x3f1ce8fbbf8c3c14U, 0x3f84ae18bf292b32U, 0xbfa2baf13ed75b20U, 0x3f808f1dbe46c35eU,
  0x3fa4d652bfb494c7U, 0x3e1fbcecbecdd220U, 0xbf60694b3eebe0d6U, 0xbed63f7fbf5f6e86U,
  0xc06f290dc04c534bU, 0x3f82187ebf8f733aU, 0x3dfd56f8c0290461U, 0xbfe33c6abfd35720U,
  0x3ef6a4b8bf8e4095U, 0x3e85de5f3e7417f6U, 0x3f5e4d8abf32904eU, 0x3e31c7efbe735d3dU,
  0xc036c239c04fed07U, 0xbf946c6cbfc5e8faU, 0xc027a44bc09da192U, 0xc09057c3c03c44e7U,
  0xbf406076c0462d76U, 0xc0705a09bffdefd5U, 0xc0114be8bd18a028U, 0xc04e358cc00f7272U,
  0xc003e068be0a9d27U, 0x3ee8c970c0b22155U, 0xc0431a39c07bee66U, 0x4012aa3c3f400e88U,
  0xbf92f2c7bf0f30d1U, 0x3fc68f06c0b728f8U, 0x3fb1b8e8c04762eaU, 0x4004bc573ed1c077U,
  0xc0532f3a3fe47adeU, 0x3f0727d8c09db18eU, 0x3e9786a23f1120c1U, 0x408e4ab73fcdafc3U,
  0x3fe6ae9bc0484ed6U, 0x4008d331bdc1df95U, 0x3dcaabf73eddd2dbU, 0x3fd329e0bf484ddcU,
  0x3d7c9c40bd56a9fbU, 0xbf6f9f43befe9620U, 0xbe4ea416befda05eU, 0x3e2313d6be3fd96bU,
  0xbeabc3f2be83169eU, 0xbed1681dbe096239U, 0x3e07408ebdbf8e99U, 0xbe0f581e3dbf576aU,
  0x3dde82063e4a9453U, 0xbf29baedbf842c7fU, 0x3d82af2abe0f17f5U, 0xbe8e1905be74e6e1U,
  0xbf08cdbdbeabab01U, 0x3c4576873df5ea7cU, 0xbe3f5d803f41eb0aU, 0xbe2f688abf5ce32fU,
  0x3e0da3be3dc35fa6U, 0xbedd773abec90ceaU, 0xbe4039a8be0cf5d1U, 0x3e815741be96490eU,
  0x3e9211f2bd125d14U, 0xbf05f7debe9809baU, 0xbe34d93e3edaad46U, 0xbeabf73ebfaefea7U,
  0xbe893cb23f14633dU, 0xbcf22ee9be71f317U, 0x3d8991743ea888d3U, 0x3e8bfc733e87d561U,
  0xbe06a091be84d12fU, 0x3e9d874dbe4da65cU, 0x3ec5775f3e0edff8U, 0xbef8b4623d8adde2U,
  0xbd935ddc3ebf6408U, 0x3ef608b93ea1159cU, 0x3def8f413f08338cU, 0x3f174a06bd9b5961U,
  0xbe8b932f3ea48730U, 0x3e774dcbbee08d31U, 0xbcaab0db3e9540beU, 0x3cf5fd8d3db513b9U,
  0xbe358e603e87b686U, 0x3ee84af3bdab2b5bU, 0x3df68b0dbe85f2b7U, 0x3f26a3b0bd885a10U,
  0xbec890043d66d148U, 0xbdbaed413bda57c7U, 0xbe41d52e3e694650U, 0xbd4b57af3eab9fa9U,
  0x3e66bc923c81363eU, 0xbf8ca0a2beb28eafU, 0xbe1fd1b3bea8413aU, 0xbdae809bbe50f98eU,
  0x3e2ea165bf89106aU, 0x3eb11cb53eccfe8eU, 0xbce3abd5beb39a66U, 0xbed60c3f3f145727U,
  0x3b6a3914bd9e2e14U, 0xbfaaf0cdbc7ba62bU, 0xbec94692bfb49ee0U, 0xbf0d4aa0bee5e08bU,
  0x3dee501abe951fa0U, 0xbeea0a71bdeb8573U, 0xbe8f7d6b3c9d14bcU, 0xc0981f2bbeada9cdU,
  0xbe20c1793cad554eU, 0x3d7b4a1e3d0ff899U, 0x3d4e94e4bd31cb77U, 0x3e8c6fee3e964e4bU,
  0xbe3075a83e33f140U, 0x3dff4fb4be1a1df3U, 0x3ea69287be8505f4U, 0x3ea07c58bdba3b73U,
  0x3eaa83843d5b2363U, 0xbd95cc88bdc9ba03U, 0xbe793517bef0be34U, 0x3d2bc4543ca1b1ebU,
  0x3ea6c286be169b95U, 0xbe7e2c0bbe195367U, 0x3de89524beaa7b74U, 0x3e8cafc13f11d57dU,
  0xbecd0951bdbc8494U, 0xbf414afd3cc81680U, 0x3ecfd45fc01f9c55U, 0xbf2465443e12c215U,
  0x3dda6778bf739fedU, 0x3e91f2083e7a34ddU, 0x3eb6fd5dbd517681U, 0xbe619fe73f04cd55U,
  0x3ee322b73e16c21cU, 0xbe88dbc03e067ebcU, 0xbea22f32bf8271a4U, 0xbf606afdbe92e90fU,
  0x3ead024f3c599ca4U, 0xbf4e8104bcd7291eU, 0x3e0d74e4bef9bb04U, 0xbeb2ec433e8548d4U,
  0x3e506266bca2599dU, 0xbd9865443ea4bea2U, 0xbda77dab3e97d038U, 0xbdb28390becac8abU,
  0xbea3842cbf054241U, 0xbdee1d10bcba99d1U, 0xbe0476a9bd84a3a4U, 0xbf462d563c40cc99U,
  0xbe0f2f22bd5f3efcU, 0xbec8782f3ecda231U, 0xbe20f541bf5de52bU, 0xbf913fc2be4c51bcU,
  0xbe0c1ed53e4e3cf4U, 0xbeb0d3c03eb17809U, 0xbe581c1a3e391d27U, 0xc0a86c65bc8e457eU,
  0xbeca9ba33eecddabU, 0x3ed0231b3f005ebdU, 0xbe0dca8f3ef4a261U, 0x3e45d665be3367f7U,
  0xbe8061e8bdb55e61U, 0x3ebced39be97af1fU, 0xbe843c28be95d6cbU, 0xbbe44d803e9e93b5U,
  0xbe01f17d3da03aacU, 0xbf335bdabdd64104U, 0x3eabb940bec27eaeU, 0xbe59de1b3e1464e7U,
  0x3edb9fa03e28551fU, 0xbe6d45673e0132b4U, 0xbe82172cbd6aba7bU, 0xbee6cfa23dd90393U,
  0x3fcd84373d4b1715U, 0xc02e6fa7bfd0a57fU, 0xc0825df93eecbd14U, 0x404368f7bf6c1de0U,
};


ai_handle g_cnn_2d_edging_ai_weights_table[1 + 2] = {
  AI_HANDLE_PTR(AI_MAGIC_MARKER),
  AI_HANDLE_PTR(s_cnn_2d_edging_ai_weights_array_u64),
  AI_HANDLE_PTR(AI_MAGIC_MARKER),
};

